<?xml version="1.0"?>
<!--
    (c) Copyright 2000-2018 CERN for the benefit of the LHCb Collaboration

    This software is distributed under the terms of the GNU General Public
    Licence version 3 (GPL Version 3), copied verbatim in the file "COPYING".

    In applying this licence, CERN does not waive the privileges and immunities
    granted to it by virtue of its status as an Intergovernmental Organization
    or submit itself to any jurisdiction.
-->
<MethodSetup Method="MLP::Pion_Upstream_TMVA">
  <GeneralInfo>
    <Info name="TMVA Release" value="4.2.1 [262657]"/>
    <Info name="ROOT Release" value="6.12/06 [396294]"/>
    <Info name="Creator" value="jonesc"/>
    <Info name="Date" value="Sat Jun  9 08:16:07 2018"/>
    <Info name="Host" value="Linux lcgapp-slc6-x86-64-2.cern.ch 2.6.32-696.18.7.el6.x86_64 #1 SMP Thu Jan 4 13:27:39 CET 2018 x86_64 x86_64 x86_64 GNU/Linux"/>
    <Info name="Dir" value="/var/pcfst/r01/lhcb/jonesc/ANNPID/results/UpgradeSim09cUp02RecoUp01/TrainMixture/TrainPhysTks-EvalPhysTks-NoReweight/GhostAccFrac1.0/PrAccF1.0/KaAccF1.0/PiAccF1.0/TMVA-Upgrade-Sim09cUp02RecoUp01/MLP/Norm/L1SF1.4/L2SF1.4/BP/NCycles750/CE/sigmoid/CVTest15/CVImp1e-16/NotUseRegulator/Pion/Upstream"/>
    <Info name="Training events" value="2680312"/>
    <Info name="TrainingTime" value="1.31496452e+05"/>
    <Info name="AnalysisType" value="Classification"/>
  </GeneralInfo>
  <Options>
    <Option name="NCycles" modified="Yes">750</Option>
    <Option name="HiddenLayers" modified="Yes">25,25</Option>
    <Option name="NeuronType" modified="Yes">sigmoid</Option>
    <Option name="RandomSeed" modified="No">1</Option>
    <Option name="EstimatorType" modified="Yes">CE</Option>
    <Option name="NeuronInputType" modified="No">sum</Option>
    <Option name="V" modified="Yes">True</Option>
    <Option name="VerbosityLevel" modified="No">Verbose</Option>
    <Option name="VarTransform" modified="Yes">Norm</Option>
    <Option name="H" modified="Yes">True</Option>
    <Option name="CreateMVAPdfs" modified="No">False</Option>
    <Option name="IgnoreNegWeightsInTraining" modified="No">False</Option>
    <Option name="TrainingMethod" modified="Yes">BP</Option>
    <Option name="LearningRate" modified="No">2.000000e-02</Option>
    <Option name="DecayRate" modified="No">1.000000e-02</Option>
    <Option name="TestRate" modified="No">10</Option>
    <Option name="EpochMonitoring" modified="Yes">True</Option>
    <Option name="Sampling" modified="No">1.000000e+00</Option>
    <Option name="SamplingEpoch" modified="No">1.000000e+00</Option>
    <Option name="SamplingImportance" modified="No">1.000000e+00</Option>
    <Option name="SamplingTraining" modified="No">True</Option>
    <Option name="SamplingTesting" modified="No">False</Option>
    <Option name="ResetStep" modified="No">50</Option>
    <Option name="Tau" modified="No">3.000000e+00</Option>
    <Option name="BPMode" modified="No">sequential</Option>
    <Option name="BatchSize" modified="No">-1</Option>
    <Option name="ConvergenceImprove" modified="Yes">1.000000e-16</Option>
    <Option name="ConvergenceTests" modified="Yes">15</Option>
    <Option name="UseRegulator" modified="Yes">False</Option>
    <Option name="UpdateLimit" modified="No">10000</Option>
    <Option name="CalculateErrors" modified="No">False</Option>
    <Option name="WeightRange" modified="No">1.000000e+00</Option>
  </Options>
  <Variables NVar="18">
    <Variable VarIndex="0" Expression="TrackP" Label="TrackP" Title="TrackP" Unit="" Internal="TrackP" Type="F" Min="2.80019989e+02" Max="4.99112400e+06"/>
    <Variable VarIndex="1" Expression="TrackPt" Label="TrackPt" Title="TrackPt" Unit="" Internal="TrackPt" Type="F" Min="1.67983723e+01" Max="9.02982188e+05"/>
    <Variable VarIndex="2" Expression="TrackChi2PerDof" Label="TrackChi2PerDof" Title="TrackChi2PerDof" Unit="" Internal="TrackChi2PerDof" Type="F" Min="6.06591584e-06" Max="2.99996805e+00"/>
    <Variable VarIndex="3" Expression="TrackNumDof" Label="TrackNumDof" Title="TrackNumDof" Unit="" Internal="TrackNumDof" Type="I" Min="2.00000000e+00" Max="4.30000000e+01"/>
    <Variable VarIndex="4" Expression="TrackGhostProbability" Label="TrackGhostProbability" Title="TrackGhostProbability" Unit="" Internal="TrackGhostProbability" Type="F" Min="7.35282898e-04" Max="9.99997973e-01"/>
    <Variable VarIndex="5" Expression="TrackFitVeloChi2" Label="TrackFitVeloChi2" Title="TrackFitVeloChi2" Unit="" Internal="TrackFitVeloChi2" Type="F" Min="1.38094675e-11" Max="9.48285980e+01"/>
    <Variable VarIndex="6" Expression="TrackFitVeloNDoF" Label="TrackFitVeloNDoF" Title="TrackFitVeloNDoF" Unit="" Internal="TrackFitVeloNDoF" Type="I" Min="-1.00000000e+00" Max="3.90000000e+01"/>
    <Variable VarIndex="7" Expression="RichUsedR1Gas" Label="RichUsedR1Gas" Title="RichUsedR1Gas" Unit="" Internal="RichUsedR1Gas" Type="I" Min="0.00000000e+00" Max="1.00000000e+00"/>
    <Variable VarIndex="8" Expression="RichAbovePiThres" Label="RichAbovePiThres" Title="RichAbovePiThres" Unit="" Internal="RichAbovePiThres" Type="I" Min="0.00000000e+00" Max="1.00000000e+00"/>
    <Variable VarIndex="9" Expression="RichAboveKaThres" Label="RichAboveKaThres" Title="RichAboveKaThres" Unit="" Internal="RichAboveKaThres" Type="I" Min="0.00000000e+00" Max="1.00000000e+00"/>
    <Variable VarIndex="10" Expression="RichDLLe" Label="RichDLLe" Title="RichDLLe" Unit="" Internal="RichDLLe" Type="F" Min="-9.99000000e+02" Max="9.71027985e+01"/>
    <Variable VarIndex="11" Expression="RichDLLmu" Label="RichDLLmu" Title="RichDLLmu" Unit="" Internal="RichDLLmu" Type="F" Min="-9.99000000e+02" Max="7.30131989e+01"/>
    <Variable VarIndex="12" Expression="RichDLLk" Label="RichDLLk" Title="RichDLLk" Unit="" Internal="RichDLLk" Type="F" Min="-9.99000000e+02" Max="9.06621017e+01"/>
    <Variable VarIndex="13" Expression="RichDLLp" Label="RichDLLp" Title="RichDLLp" Unit="" Internal="RichDLLp" Type="F" Min="-9.99000000e+02" Max="8.75218964e+01"/>
    <Variable VarIndex="14" Expression="RichDLLd" Label="RichDLLd" Title="RichDLLd" Unit="" Internal="RichDLLd" Type="F" Min="-9.99000000e+02" Max="8.20015030e+01"/>
    <Variable VarIndex="15" Expression="RichDLLbt" Label="RichDLLbt" Title="RichDLLbt" Unit="" Internal="RichDLLbt" Type="F" Min="-9.99000000e+02" Max="4.56291008e+01"/>
    <Variable VarIndex="16" Expression="InAccBrem" Label="InAccBrem" Title="InAccBrem" Unit="" Internal="InAccBrem" Type="I" Min="0.00000000e+00" Max="1.00000000e+00"/>
    <Variable VarIndex="17" Expression="BremPIDe" Label="BremPIDe" Title="BremPIDe" Unit="" Internal="BremPIDe" Type="F" Min="-9.99000000e+02" Max="4.79148388e+00"/>
  </Variables>
  <Spectators NSpec="0"/>
  <Classes NClass="2">
    <Class Name="Signal" Index="0"/>
    <Class Name="Background" Index="1"/>
  </Classes>
  <Transformations NTransformations="1">
    <Transform Name="Normalize">
      <Selection>
        <Input NInputs="18">
          <Input Type="Variable" Label="TrackP" Expression="TrackP"/>
          <Input Type="Variable" Label="TrackPt" Expression="TrackPt"/>
          <Input Type="Variable" Label="TrackChi2PerDof" Expression="TrackChi2PerDof"/>
          <Input Type="Variable" Label="TrackNumDof" Expression="TrackNumDof"/>
          <Input Type="Variable" Label="TrackGhostProbability" Expression="TrackGhostProbability"/>
          <Input Type="Variable" Label="TrackFitVeloChi2" Expression="TrackFitVeloChi2"/>
          <Input Type="Variable" Label="TrackFitVeloNDoF" Expression="TrackFitVeloNDoF"/>
          <Input Type="Variable" Label="RichUsedR1Gas" Expression="RichUsedR1Gas"/>
          <Input Type="Variable" Label="RichAbovePiThres" Expression="RichAbovePiThres"/>
          <Input Type="Variable" Label="RichAboveKaThres" Expression="RichAboveKaThres"/>
          <Input Type="Variable" Label="RichDLLe" Expression="RichDLLe"/>
          <Input Type="Variable" Label="RichDLLmu" Expression="RichDLLmu"/>
          <Input Type="Variable" Label="RichDLLk" Expression="RichDLLk"/>
          <Input Type="Variable" Label="RichDLLp" Expression="RichDLLp"/>
          <Input Type="Variable" Label="RichDLLd" Expression="RichDLLd"/>
          <Input Type="Variable" Label="RichDLLbt" Expression="RichDLLbt"/>
          <Input Type="Variable" Label="InAccBrem" Expression="InAccBrem"/>
          <Input Type="Variable" Label="BremPIDe" Expression="BremPIDe"/>
        </Input>
        <Output NOutputs="18">
          <Output Type="Variable" Label="TrackP" Expression="TrackP"/>
          <Output Type="Variable" Label="TrackPt" Expression="TrackPt"/>
          <Output Type="Variable" Label="TrackChi2PerDof" Expression="TrackChi2PerDof"/>
          <Output Type="Variable" Label="TrackNumDof" Expression="TrackNumDof"/>
          <Output Type="Variable" Label="TrackGhostProbability" Expression="TrackGhostProbability"/>
          <Output Type="Variable" Label="TrackFitVeloChi2" Expression="TrackFitVeloChi2"/>
          <Output Type="Variable" Label="TrackFitVeloNDoF" Expression="TrackFitVeloNDoF"/>
          <Output Type="Variable" Label="RichUsedR1Gas" Expression="RichUsedR1Gas"/>
          <Output Type="Variable" Label="RichAbovePiThres" Expression="RichAbovePiThres"/>
          <Output Type="Variable" Label="RichAboveKaThres" Expression="RichAboveKaThres"/>
          <Output Type="Variable" Label="RichDLLe" Expression="RichDLLe"/>
          <Output Type="Variable" Label="RichDLLmu" Expression="RichDLLmu"/>
          <Output Type="Variable" Label="RichDLLk" Expression="RichDLLk"/>
          <Output Type="Variable" Label="RichDLLp" Expression="RichDLLp"/>
          <Output Type="Variable" Label="RichDLLd" Expression="RichDLLd"/>
          <Output Type="Variable" Label="RichDLLbt" Expression="RichDLLbt"/>
          <Output Type="Variable" Label="InAccBrem" Expression="InAccBrem"/>
          <Output Type="Variable" Label="BremPIDe" Expression="BremPIDe"/>
        </Output>
      </Selection>
      <Class ClassIndex="0">
        <Ranges>
          <Range Index="0" Min="2.9258999633789062e+02" Max="4.9911240000000000e+06"/>
          <Range Index="1" Min="2.8020841598510742e+01" Max="8.9144987500000000e+05"/>
          <Range Index="2" Min="6.7609478719532490e-05" Max="2.9999201297760010e+00"/>
          <Range Index="3" Min="2.0000000000000000e+00" Max="4.3000000000000000e+01"/>
          <Range Index="4" Min="7.3528289794921875e-04" Max="9.9974745512008667e-01"/>
          <Range Index="5" Min="1.2878922928116765e-10" Max="9.4370925903320312e+01"/>
          <Range Index="6" Min="-1.0000000000000000e+00" Max="3.9000000000000000e+01"/>
          <Range Index="7" Min="0.0000000000000000e+00" Max="1.0000000000000000e+00"/>
          <Range Index="8" Min="0.0000000000000000e+00" Max="1.0000000000000000e+00"/>
          <Range Index="9" Min="0.0000000000000000e+00" Max="1.0000000000000000e+00"/>
          <Range Index="10" Min="-9.9900000000000000e+02" Max="7.3330001831054688e+01"/>
          <Range Index="11" Min="-9.9900000000000000e+02" Max="7.3013198852539062e+01"/>
          <Range Index="12" Min="-9.9900000000000000e+02" Max="9.0662101745605469e+01"/>
          <Range Index="13" Min="-9.9900000000000000e+02" Max="7.9567703247070312e+01"/>
          <Range Index="14" Min="-9.9900000000000000e+02" Max="8.2001502990722656e+01"/>
          <Range Index="15" Min="-9.9900000000000000e+02" Max="4.5629100799560547e+01"/>
          <Range Index="16" Min="0.0000000000000000e+00" Max="1.0000000000000000e+00"/>
          <Range Index="17" Min="-9.9900000000000000e+02" Max="4.7914838790893555e+00"/>
        </Ranges>
      </Class>
      <Class ClassIndex="1">
        <Ranges>
          <Range Index="0" Min="2.8001998901367188e+02" Max="4.9807085000000000e+06"/>
          <Range Index="1" Min="1.6798372268676758e+01" Max="9.0298218750000000e+05"/>
          <Range Index="2" Min="6.0659158407361247e-06" Max="2.9999680519104004e+00"/>
          <Range Index="3" Min="2.0000000000000000e+00" Max="4.3000000000000000e+01"/>
          <Range Index="4" Min="7.7617168426513672e-04" Max="9.9999797344207764e-01"/>
          <Range Index="5" Min="1.3809467458436586e-11" Max="9.4828598022460938e+01"/>
          <Range Index="6" Min="-1.0000000000000000e+00" Max="3.9000000000000000e+01"/>
          <Range Index="7" Min="0.0000000000000000e+00" Max="1.0000000000000000e+00"/>
          <Range Index="8" Min="0.0000000000000000e+00" Max="1.0000000000000000e+00"/>
          <Range Index="9" Min="0.0000000000000000e+00" Max="1.0000000000000000e+00"/>
          <Range Index="10" Min="-9.9900000000000000e+02" Max="9.7102798461914062e+01"/>
          <Range Index="11" Min="-9.9900000000000000e+02" Max="6.8896499633789062e+01"/>
          <Range Index="12" Min="-9.9900000000000000e+02" Max="8.6427497863769531e+01"/>
          <Range Index="13" Min="-9.9900000000000000e+02" Max="8.7521896362304688e+01"/>
          <Range Index="14" Min="-9.9900000000000000e+02" Max="4.5371299743652344e+01"/>
          <Range Index="15" Min="-9.9900000000000000e+02" Max="4.5628898620605469e+01"/>
          <Range Index="16" Min="0.0000000000000000e+00" Max="1.0000000000000000e+00"/>
          <Range Index="17" Min="-9.9900000000000000e+02" Max="4.7914838790893555e+00"/>
        </Ranges>
      </Class>
      <Class ClassIndex="2">
        <Ranges>
          <Range Index="0" Min="2.8001998901367188e+02" Max="4.9911240000000000e+06"/>
          <Range Index="1" Min="1.6798372268676758e+01" Max="9.0298218750000000e+05"/>
          <Range Index="2" Min="6.0659158407361247e-06" Max="2.9999680519104004e+00"/>
          <Range Index="3" Min="2.0000000000000000e+00" Max="4.3000000000000000e+01"/>
          <Range Index="4" Min="7.3528289794921875e-04" Max="9.9999797344207764e-01"/>
          <Range Index="5" Min="1.3809467458436586e-11" Max="9.4828598022460938e+01"/>
          <Range Index="6" Min="-1.0000000000000000e+00" Max="3.9000000000000000e+01"/>
          <Range Index="7" Min="0.0000000000000000e+00" Max="1.0000000000000000e+00"/>
          <Range Index="8" Min="0.0000000000000000e+00" Max="1.0000000000000000e+00"/>
          <Range Index="9" Min="0.0000000000000000e+00" Max="1.0000000000000000e+00"/>
          <Range Index="10" Min="-9.9900000000000000e+02" Max="9.7102798461914062e+01"/>
          <Range Index="11" Min="-9.9900000000000000e+02" Max="7.3013198852539062e+01"/>
          <Range Index="12" Min="-9.9900000000000000e+02" Max="9.0662101745605469e+01"/>
          <Range Index="13" Min="-9.9900000000000000e+02" Max="8.7521896362304688e+01"/>
          <Range Index="14" Min="-9.9900000000000000e+02" Max="8.2001502990722656e+01"/>
          <Range Index="15" Min="-9.9900000000000000e+02" Max="4.5629100799560547e+01"/>
          <Range Index="16" Min="0.0000000000000000e+00" Max="1.0000000000000000e+00"/>
          <Range Index="17" Min="-9.9900000000000000e+02" Max="4.7914838790893555e+00"/>
        </Ranges>
      </Class>
    </Transform>
  </Transformations>
  <MVAPdfs/>
  <Weights>
    <Layout NLayers="4">
      <Layer Index="0" NNeurons="19">
        <Neuron NSynapses="25">
          -2.4609960200510805e+00 -5.3758588256703623e+00 3.1702306252980756e+00 1.5298027809874728e+00 -5.5103384026168567e-01 -1.4080011703933437e-01 -6.4124354629973563e+00 8.5336789369067478e+00 1.2405852049595594e+00 -2.1509837964896419e+00 -1.7185433767433278e+01 2.5508296889306670e-01 4.2384927302556674e+00 -7.6570703996912908e+00 5.6236968340842539e+00 -2.3826286868860884e+00 1.7530493565135186e+00 3.9685113426932915e+01 2.9210943364459880e+00 1.8301074270767799e+01 -7.2896343443419831e-01 3.7710897513231019e+00 1.0294252348994188e+01 -1.9589357020280433e+00 4.2499268390517450e+01 
        </Neuron>
        <Neuron NSynapses="25">
          2.0712932675602604e+00 4.1022969899646500e-01 4.6734784416609747e+00 -1.0700028538868153e-01 -7.3363039440164646e-01 5.9960708519476358e-01 -2.2155861005376082e+01 -8.1176316838187060e-02 -1.1957155959947279e+01 -1.5870030748279362e+01 7.0131650146389815e+00 -1.3014003080612961e+01 5.5100073299766006e+00 -5.6349210741384255e+00 -2.0193446140696145e+00 5.5079616998458392e-01 5.6027756584165447e+00 2.8667452096442831e+00 7.0987369956670552e+00 -9.2266343605333638e+00 -2.2414830663630285e+00 -8.4623663991673559e-01 2.6144291629131722e-01 2.1959459015101546e+00 -6.5131419631261318e+00 
        </Neuron>
        <Neuron NSynapses="25">
          1.5915387196208532e+00 -2.7280235243286004e+00 -2.0617772607228482e-01 -2.4420920935783089e-01 4.5221510652306868e-01 -1.5217583101975114e+00 -5.6675599907790120e-01 -1.7558761023271316e+00 8.6212865602396949e-01 -1.2654087576440973e-01 4.2194888179509160e-01 -2.2970600409247813e-01 -2.1776589354721815e-01 3.1559723154336145e-01 1.5534569622549690e-01 1.1150166969479549e+00 4.8209279348050532e-01 -4.6128934504442665e-01 1.9920337586524639e+00 -9.2319627148006489e-01 1.2985750749237901e-01 -4.7919807555478018e+00 -5.0945371248757432e-01 3.0819969042327250e-01 5.0823882062712311e-01 
        </Neuron>
        <Neuron NSynapses="25">
          -1.5603542720002037e+00 6.5031762022590476e+00 -1.9551914000741263e+01 -6.9798410136742808e+00 3.6605799684726410e+00 1.4033619105917909e+00 1.1837560820520293e+01 2.9999769595031260e+00 -4.3615183498721288e+00 5.8107980863813991e+00 -4.4023306740922221e+00 -1.3910657758376717e+00 -1.2728869726183976e+00 -2.7398758955310880e+00 4.3510699647940747e+00 1.1848410046959632e+00 2.0442254784376299e+00 2.2470416151218626e+00 -8.2410679935267428e+00 9.6736525318318769e+00 2.8175266549301416e+00 -1.8738927765885625e+00 7.5943315091818437e+00 -5.3733683437852058e+00 -6.4152562353581732e+00 
        </Neuron>
        <Neuron NSynapses="25">
          2.3692498218772218e+00 -2.3290259726069071e+00 5.9662541106674050e-01 2.5859088988475794e+00 -1.2043017969007996e+00 6.7822998447840028e+00 -4.7707408775652976e-01 -7.0608497110504693e+00 -5.9153765207969089e-01 -1.0510714246114470e+00 -6.7179239794923475e+00 1.6973429888138918e+00 3.2701404327220014e+00 -1.3173751691950810e+00 -1.3748630830887307e+00 2.5118134790968951e+00 1.4054762276607779e+01 -3.2041442639638373e-01 -1.9041740190117020e+00 6.7335188949275271e-01 -2.6219732098631630e+00 1.6249256567666543e+00 -9.3972626164204554e-01 3.0899275827129871e+00 -7.4128511866774816e-01 
        </Neuron>
        <Neuron NSynapses="25">
          1.2963086194459290e+00 2.7424494534376778e+00 1.7153337327101921e+00 -3.2604007108928901e+00 -3.4925984287283938e+00 6.5027390451822487e-01 1.3626013842355269e+00 -9.0563637418779119e-01 -2.2301227179445706e+00 -3.2937523248014355e-01 6.3419127850894064e-01 1.8384030075950262e+00 -3.2829984774752977e-02 -9.0108980168604066e-02 9.8399302993024094e+00 5.5170167565735251e-01 2.9653349818373165e-01 1.7991703146593598e+00 -4.9064263845420513e+00 3.0744675455588846e+00 8.1644759681309220e-01 4.5942419316268017e+00 1.6695305229011348e+00 -7.3461786909128329e-02 -2.7752425211519149e+00 
        </Neuron>
        <Neuron NSynapses="25">
          -3.7760171510084939e-01 -7.2823524525994614e+00 1.7318148334357112e+01 3.4234715643975916e-01 3.3953200961187848e+00 -3.2130131350886937e-01 -1.2130262856692960e+01 -4.4887014804572001e+00 5.4600451084268258e+00 -5.6282296183972891e+00 2.6924752444554292e+00 7.9102170309567132e-01 5.5686268621242807e-01 2.6901853628447379e+00 -1.0194093291263227e+01 2.4011213442380024e+00 -1.9433005233058573e+00 -3.1171644358010471e+00 3.9206625673662066e+00 -1.0873123074116599e+01 -4.2304467169048880e+00 1.7331464431206662e+00 -9.6208522738821749e+00 5.1651755803527850e+00 7.5999551596886175e+00 
        </Neuron>
        <Neuron NSynapses="25">
          -6.8215164412367031e+00 -2.4764703376221797e-01 -9.0381559454112406e+00 -8.7058174204920680e-01 -1.7071011579387714e+00 -1.8745076515206951e+00 4.1780140002064606e+01 4.7746839532948719e+00 2.5601192176990239e+01 2.2611144959448112e+01 8.3099265574866701e-02 1.8637768461739242e+01 -6.5884162764072252e-01 7.5768753684231136e+00 4.1395055064502628e+00 -1.4565168725851116e+00 -2.8755193097654130e-01 -2.7207003589596086e+00 2.6896022037449496e+00 -6.5174547260545224e-01 3.2543808387209894e-01 -9.0916621922782692e-01 1.4672695460375424e+00 -4.1460977448620966e+00 6.4578461041422575e+00 
        </Neuron>
        <Neuron NSynapses="25">
          -5.7054104139949047e+00 8.4446733394682866e-02 -1.3061653799182979e-01 -9.8445817020413511e+00 -1.0317112020302352e-01 3.8835409428281314e-01 1.7204842339030871e-01 -4.5019100311874355e-01 2.9207065386725588e+01 2.3623885384830594e+01 5.8528301028419190e+00 1.7340113553079533e+01 -9.3468879353943057e-01 1.1938206318996916e+00 -2.1892836544518790e-01 -9.0851348881776147e-03 4.0156665793496715e-01 -3.5787248567187708e+00 6.9186800794857484e-01 -4.0524358805086216e+00 -6.0519193920227741e+00 2.2883938479482135e-01 -7.2231405431794053e+00 9.4846941419744357e-01 9.7495167271684817e+00 
        </Neuron>
        <Neuron NSynapses="25">
          -3.5149811714943495e+00 -3.4650596517595844e-01 -3.8839000326869294e-01 -1.3708522856551872e+00 2.4638206007796373e-01 2.9414013007130584e+00 -2.3769919880815946e-01 -6.7955297496076594e-02 -7.0628575641694891e-01 1.2432758143951959e-01 1.3924074013074536e-01 -4.0192638285413895e-01 -4.4409841562212256e+00 -4.6472011585714212e-01 -1.1579780210100984e-01 -5.3922940473357599e+00 -1.3088549179966075e-01 -5.4029557917965390e+00 -5.4783312340668755e-01 -2.6862316116697932e-01 1.1651309941127229e-01 -1.2304729084334341e-01 -4.1936159964305970e+00 6.9797819330575397e-02 2.7279838588562400e-01 
        </Neuron>
        <Neuron NSynapses="25">
          6.4500105766557088e+00 -6.1645461051821844e+00 2.2834774239229296e+00 3.7556826516245039e+00 -1.4750225945876301e+00 -1.1734671465589221e+00 -1.0679520236264459e+02 -2.6917803125893611e+00 -2.9791881500026335e+01 -8.4016711375811362e+00 -2.4816989919563373e+00 -2.3681075877180162e+00 -3.8064333140572533e+00 -5.2924915429216330e+00 -1.5084228349017302e+01 3.0641259940690935e+00 -1.2129586705172324e-01 -3.2718266945443162e+00 5.5817576827640092e-01 -1.8136537841343089e-01 -9.9396649500278293e+00 3.1351621691026760e-01 -1.9083149431511155e+00 1.8452556120756963e+01 -2.1461207600490692e+01 
        </Neuron>
        <Neuron NSynapses="25">
          -1.8110445879498618e+00 -5.0639913203758260e+00 1.9495221678049528e+01 8.2407790439519712e-01 2.8450795576395466e-01 -1.2784324581346460e-01 5.9575996595473644e+00 -1.2090088835250170e+00 2.1613394535929910e+01 -1.4499117125760707e+01 -3.1795709055729815e+00 8.6319459924906763e+00 1.3405178489661854e+01 -3.7941549061626858e+01 -2.6081294146003864e+00 3.8018811264047309e-01 1.2652406718172118e+00 -5.4594867311963400e+00 3.5559496308232421e+00 3.7729462204513320e+00 6.2990705540114711e-01 5.4594810414615642e+00 1.9763434072849320e-01 -4.4459116414894993e+01 -2.3748109677342830e+00 
        </Neuron>
        <Neuron NSynapses="25">
          -3.1244666688133456e+00 3.6892026334775352e+00 1.6387495460222006e+01 -2.1931333434122635e+00 9.9918642528371038e-01 -9.0612757860636717e-01 -4.3599556516255646e+01 -6.2024617214228925e+00 -5.3475152402347923e+01 -2.0963523777861614e+01 3.9313994206573426e+00 -3.8457330849125441e+01 -1.5451801736715201e+00 6.4664475125702987e+00 6.5489423729420668e+00 -2.2773467162566638e+00 -1.2807347169194011e-01 -6.2905925620145640e+00 -1.8128935130011150e+00 1.6822405067471603e+01 -3.0024370360966728e+00 -2.6010512627327427e+00 -1.3546651942886609e-01 1.8067082811238890e+01 1.5318876358888314e+00 
        </Neuron>
        <Neuron NSynapses="25">
          1.5505613869756498e+00 3.9771510467207163e+00 5.7438462451668100e+00 -1.1839329322660823e+00 1.3151711221893203e+00 -2.0563942860300761e+00 -4.6842986119033503e+00 -3.9431773633864287e-01 -2.1472833517546068e+01 -9.8425478640960886e+00 3.0707462068637654e+00 -1.5373256094359657e+01 3.4091825112905054e+00 1.1126097194490547e+00 4.2302265804806360e+00 -2.6634374663502212e+00 -1.1348555766280612e+00 -2.5361330142225400e+00 -3.3696952638386213e+00 9.4018963029731371e+00 -2.2593639864926045e+00 -1.3685575739394460e+00 -7.0823501623844584e-02 4.3338613077641677e+00 7.7076092628069333e+00 
        </Neuron>
        <Neuron NSynapses="25">
          6.4407633688434167e+00 3.4088639921969732e+00 2.1263499613560919e+00 1.2647845287220583e+00 -8.2966544645594320e-01 -1.9068419869237272e+00 5.5261715483548679e+00 3.0713897345886760e+00 -1.2390306614386107e+01 -2.0686409402332718e+01 3.2217185045542607e-01 -1.3713781733399212e+01 3.5628247798179600e+00 -8.3727501957579031e-01 2.4979296546223733e+00 -2.1902922842470360e+00 -2.2564602121718700e+00 -5.0669539501025316e+00 -1.9503963273648917e-01 -8.9676844754323461e+00 7.5606704670045843e-01 -1.8277178754069923e+00 -1.3264864335514757e+00 5.6035700653689897e+00 1.0283627334728300e+00 
        </Neuron>
        <Neuron NSynapses="25">
          7.6537775554906284e+00 3.2869036804183636e+00 4.3857445256579268e+00 3.6763256513713358e+00 1.1624907827082502e+00 -1.4682304593928102e+00 4.4102298969784046e+00 -6.7216571997391117e-01 -1.8298789989505313e+01 -3.0863175691009474e+01 -2.4900345515227773e+00 -1.5626629040346200e+01 5.9627778493227481e+00 2.7072480348796062e+00 -6.8672116768287261e-01 2.1039006767400044e+00 9.7642536826828485e-01 -6.4657780958183331e+00 9.7355155581699590e-02 -1.4153966240868133e+01 3.3891269820312142e-01 2.8269001234689850e-01 9.6287635819243234e-01 6.9297836010077623e+00 -4.5843546581737398e+00 
        </Neuron>
        <Neuron NSynapses="25">
          5.6124358822559839e-01 2.2313095491240147e+00 -8.7410206050368764e+00 -2.1025825817639245e+00 6.2623292766853011e-01 -1.2417520012047643e+00 6.6381718806714005e+00 1.5882371883133228e+00 1.5960265931637603e+00 6.5710992949562563e-01 -8.1491603996751782e-01 1.5433951409552382e-01 -1.6080451687684580e+00 -1.2931110189085351e-01 9.6822098624880915e-01 -2.9213212359633500e+00 1.5154584960531354e+00 1.0808488652026149e+00 1.3476584921554748e+00 6.7550737753899159e-01 -8.9528928161634515e-03 1.0127381035583992e-01 7.3983869627295917e-01 -4.5904319140732869e-01 1.6531060375745339e+00 
        </Neuron>
        <Neuron NSynapses="25">
          -4.8788582504889039e-01 -2.4407392416492013e+00 -8.1665056729202501e+00 -1.7428489476873961e+00 -5.6778784022186868e-01 8.1499571762586420e-01 -6.6525069728441544e+00 -1.9513403828528262e+00 -1.8792106405537266e+00 -1.0098235299005880e+00 6.4905617800286075e-01 2.7487957674086549e-01 -2.6732199177964340e+00 -1.0211285578983680e+00 -8.4543435995480720e-01 -3.8814087269403408e+00 -1.3566644184145542e+00 -8.2565255605541554e-01 9.9144112399902884e-01 -1.3115045999202870e+00 1.8694083060221742e+00 2.6518656473641233e-01 -7.4140186036912692e-01 4.2388209848340364e-01 -1.5250280517237425e+00 
        </Neuron>
        <Neuron NSynapses="25">
          -6.1412411269670963e-01 -7.9800734370913018e+00 -8.7020227830720316e+00 1.3510477862434720e+00 2.7870806326181792e+00 -7.5888882648516498e-01 4.2003768802867022e+01 9.2676949381444718e-01 2.8966199906012051e+01 2.4675137906415038e+01 -9.6051401376337200e+00 1.8290429669786747e+01 -3.1381428761055239e+00 7.7269027317294547e+00 8.0466940638687561e+00 4.4994022172357778e-01 -6.3688606679660573e+00 2.3395572622206275e+00 -1.7772916207947695e+00 1.0681318973410511e+01 1.1728667541600146e+00 2.8662764146820567e+00 -7.6586245999391955e-01 2.4130162643526204e-01 3.2556375635692888e+01 
        </Neuron>
      </Layer>
      <Layer Index="1" NNeurons="26">
        <Neuron NSynapses="25">
          -3.7791529783107780e+00 4.8230381390444750e+00 -2.0866771456219020e+00 -4.8280487952781277e+00 3.4929823250693698e-01 -6.2032571921647026e+00 1.5958301900999645e+00 -2.4948547357120154e+00 8.3176405678360665e-01 -2.7956578439257318e+00 -2.7785211066934229e-01 -2.4944959747255635e+00 -6.1850301131785725e+00 -3.0586924525321008e-01 9.2772909768657108e-01 3.6868968330013074e-01 -3.5974471394755558e+00 -3.0501583217302581e+00 -1.1908819600803451e+00 -6.9288403873968762e-01 -1.2077550387236908e+00 9.5848057687213506e-01 -1.3941889812826496e+00 3.2659677081671895e-01 -9.1322491709703046e-01 
        </Neuron>
        <Neuron NSynapses="25">
          -5.7378065884432972e-01 -1.2400433716195440e+00 5.6663729916644261e+00 4.2588083149925451e+00 1.3339516825197153e+00 2.6989475048378758e-01 -3.7195859873031950e-01 1.6003329459625775e+00 -7.4673531225491929e-01 -7.6775877043353946e-01 1.8881653551180475e-01 -4.0000420423368181e+00 -2.4514341340978878e+00 2.6932761991018790e+00 -2.2425697068695070e+00 -6.5411380333281599e-01 -4.0413532650247834e+00 2.3391179810323357e+00 3.5302884168182898e+00 9.0004195098830253e-01 1.4394679267508530e+00 -6.9819366561886320e-01 3.2247403033401847e+00 8.4028087221476855e-01 2.0393519974833549e+00 
        </Neuron>
        <Neuron NSynapses="25">
          8.9624586610600221e-01 -4.5658206182499450e+00 -1.3641669826655227e+00 -3.1585962690537999e+00 -2.7198717004153345e+00 -5.4866771532156795e+00 -2.5564467982639116e+00 -2.9839128040910854e+00 -3.3794428497756894e+00 -9.6809408914363093e-01 3.5614976991354359e+00 1.1896479817811957e-01 -1.4656938652414662e+00 4.6413047605734068e+00 -1.4672014634991501e-01 -2.4858980656442666e+00 -2.7260140593518476e-02 -1.9480376109847085e-03 -4.2357419328677635e+00 3.6663640879895576e+00 -4.6135389797058126e+00 4.3842915931611710e+00 -3.1417441508715407e+00 2.7517723195966228e+00 -4.6626592798948696e+00 
        </Neuron>
        <Neuron NSynapses="25">
          3.0791591665164545e-02 -2.4142376034249575e+00 -5.1142396890569390e+00 -6.3796638786591947e-02 9.4787524463957706e-01 -2.3920880221963164e-01 -8.4381378641940996e-01 -1.2678566004155574e+00 1.3636964231108200e+00 -1.4547963854267283e+00 -7.8301049190041350e-01 4.0120634459523004e+00 5.4290629642361559e+00 2.4291268314279986e+00 1.7176480336886507e-01 1.4863940624102794e+00 5.5281379026589983e-01 5.5596294545144709e-01 -2.2360308789616581e-01 -2.2015586426540246e+00 -3.7673508983639810e+00 2.8998378662565223e+00 -9.3395196046232332e-01 3.2002240895453621e-01 -1.0678775283258262e+00 
        </Neuron>
        <Neuron NSynapses="25">
          -1.6511991646929793e+00 -3.9157544005319638e+00 -3.2899371950711673e+00 1.7487487753102200e+00 -2.3178057699932246e+00 5.1467718310848731e+00 -1.8526088492906384e-01 7.4658109452167409e-01 -8.6158592838307324e-01 -3.6841790188660864e-02 -1.0577804871243730e+00 6.3650657097513519e-01 3.1006715523464976e+00 -7.1626977711308548e-01 -9.8931359888142292e-03 -4.3658334654844175e+00 1.1786280066374772e+00 1.1570132103395454e+00 9.2008627769840490e-01 -1.2979425008230052e+00 -2.0181666727723538e-01 2.6069705541095223e+00 -3.8505947122728914e+00 -3.6952079895700813e+00 -3.0445629601577795e+00 
        </Neuron>
        <Neuron NSynapses="25">
          2.3530444744367727e+00 4.2595734508170411e+00 1.1589757368021312e+00 -2.8516471772133825e+00 4.3179291895983563e-01 3.3011783181347076e+00 -3.1795504265467173e-01 2.3430778336932159e+00 2.2687193708701647e-01 1.5322778138297874e+00 -5.2117665526092805e-01 3.7561158081430683e+00 4.5435856456945189e-01 3.6576599652426289e-01 -2.0287638786360103e+00 -4.2277678204925434e-01 5.2415434946041883e-01 3.5632496780589431e+00 -5.2068437655268713e+00 -1.9154183623022223e+00 1.5306504665985927e+00 -9.0957929681806649e-01 -1.3549421918034434e+00 6.8562064211145390e-01 -3.6382432039800721e+00 
        </Neuron>
        <Neuron NSynapses="25">
          -4.3832433083443947e+00 -1.0626672394024629e+01 -2.3852784136311729e+00 -1.8470586656812631e+00 -2.1184436348432962e+00 2.9049526165752155e+00 -8.1480013354344227e-01 1.8415583902581953e+00 -1.2254064408313774e+01 -5.2082487963653668e+00 -3.2053397455233251e-01 -1.2967672906788879e+00 -9.2878621111286241e-01 -4.7442851667653868e-01 1.0791813153118115e+00 -2.2874669223031052e+00 -1.3410262110606341e+01 5.2130470325587441e-01 -2.6472221852983098e+00 1.2568019606448635e-01 1.3084663742964948e+00 6.0518629168577709e-01 1.6914021906398304e+00 -1.7943672019338714e+00 1.6906137970999438e-01 
        </Neuron>
        <Neuron NSynapses="25">
          1.0394896064284529e+00 -1.2941795458629074e-01 2.2053427548305713e+00 -4.0679840134438106e+00 1.0943405387644219e-01 -5.2566689087502894e-01 -1.4448686014944145e+00 -4.9097103177276175e-01 -7.3133850938630041e-01 -1.2277626831184172e+00 -4.7767622824104237e+00 4.9647664896883290e+00 9.9944512616700631e-01 -2.3967528610071485e+00 -3.7005426530796677e+00 -3.0116463565112817e+00 4.1074784145388952e+00 -4.8905597040534504e-01 -3.4675594817186681e+00 -5.5658529572567117e-01 5.1789218956868166e-01 -7.5165913980777488e-01 -2.0648642333491005e+00 -1.7165433737768407e+00 1.5447420566882020e+00 
        </Neuron>
        <Neuron NSynapses="25">
          -2.2249835483545438e-01 -5.1312220056916269e-01 -8.7609493831511676e-01 -1.5425301046770725e+00 -2.6783583438057934e+00 -5.7070850922100225e-01 -2.4003953599358230e-01 2.8296768883078873e+00 1.2993622562513416e+00 5.1159747965858884e+00 -1.3681574651920090e+00 5.0983659280666913e+00 4.9855920782575298e+00 -2.1640879206470838e+00 -4.2784134585299355e-01 1.3419382214527489e+00 -4.3446553403904700e+00 6.6497644131922451e-01 2.9677301692260309e+00 5.1883531860881416e+00 -3.8499486221971821e+00 1.8298120877499777e+00 7.4173130357495021e-01 1.9289775083328924e+00 -4.2185750254537868e-01 
        </Neuron>
        <Neuron NSynapses="25">
          9.4212928804004792e-01 1.1074932559039583e+01 -3.9263306559289153e+00 4.4653242428400794e+00 -1.5600950932676587e+00 -2.9877879768357554e+00 -7.2568039632859738e-01 -2.2683644016379509e+00 4.9305851186099874e+00 1.3336539103126570e+00 -8.7227216225145465e+00 -5.7734434725988260e-01 6.3716387723070012e-01 -9.1657679392354812e+00 -1.7873777166025704e+00 -2.0593768886371153e+00 -6.8338648941850022e-01 -4.4655947089141472e+00 4.5626294675182786e+00 -1.1085013125600547e+01 -2.4364778933154789e+00 2.2691839966561931e+00 2.5600200278681701e-01 -2.0105022717318479e+00 2.7606425397379457e+00 
        </Neuron>
        <Neuron NSynapses="25">
          2.4479174991393693e+00 -2.1510053285565461e-01 -1.8590246192676123e+00 -3.1201080406983301e+00 5.9606609891062379e-01 3.6630571809957950e+00 -2.9122947264936734e+00 5.4105952527476053e-01 -1.4079300116508586e+00 8.9378807852583309e-01 1.7392587705657507e+00 -3.6867537602388872e-01 2.0417011271241496e+00 1.6794272357632181e+00 -2.0515543439342738e+00 -1.7475725551263950e+00 1.5614579203226682e+00 -3.9527092544249365e-01 1.2930248160148734e+00 4.6084997167533235e+00 6.2803822448761026e-01 -1.4047054413412468e+00 2.5444264420769569e+00 -4.7557120489879917e-01 -5.2795083440187369e+00 
        </Neuron>
        <Neuron NSynapses="25">
          1.0780457680151696e+00 1.8001999852028339e+00 -1.7249561754452667e+00 -4.1267971052791257e+00 -4.2869468631481800e-01 -3.8605418442496351e+00 8.0617161266903248e-01 1.2239020688211699e+00 -8.8864001951517035e-01 3.8868879895254635e+00 -3.8721483661232701e+00 -1.7301737309541734e+00 -2.4591338732982102e+00 -2.2237458919148763e+00 3.4789623176065918e+00 4.7952586537800795e-01 -1.1185681709397910e+00 -3.5414539975081788e-01 5.3132305870863554e+00 -3.2743076719836153e+00 -3.2964030041801315e+00 5.0670528990908092e+00 4.2817355030048825e+00 2.1151965775857566e+00 -2.2072480918982085e+00 
        </Neuron>
        <Neuron NSynapses="25">
          -3.8740182910168103e-01 -2.6701719611646881e+00 2.3956660041072602e+00 -2.5463740487106317e+00 -9.8788691840168608e-01 -4.6933724898944682e+00 5.9245816279543506e-01 7.1311999301872786e-01 -5.0175701200206708e+00 -7.5330165884893954e-02 -1.5921333014521122e+00 -1.6543833158349261e+00 -1.4616253802303263e+00 3.8503608640535729e+00 -1.2207120867272941e-01 2.9613680720177382e+00 -2.7057752012095833e+00 -1.0567707752402173e+00 -3.1000782068518196e+00 6.6547156367915585e+00 8.6079317687901291e-01 -1.2376069400135958e+00 1.5374128546708596e+00 5.0710210218696694e-01 -1.5012235347532898e+00 
        </Neuron>
        <Neuron NSynapses="25">
          4.7266248458880513e+00 -2.1586446373661344e-01 8.7283273508841086e-01 5.2309333350580189e+00 -5.8535767722108245e+00 -8.3898738956873231e-01 2.2180903767423152e+00 3.0783420838155834e-01 4.7607394303551898e+00 -2.3064898079053697e+00 1.4122713565636225e+00 -2.1289482027537399e+00 -1.9309616971839905e+00 -2.1329155030623732e+00 -2.7537225661504636e+00 -4.5444975556096773e-01 1.7552319325141366e+00 -1.3053357834551105e-02 3.6546530171893687e-01 -7.6915819838810080e+00 -3.1019841978432159e+00 6.4140735650478109e-01 2.6118760800092460e+00 -1.8804332814294129e+00 9.2816388466610604e+00 
        </Neuron>
        <Neuron NSynapses="25">
          -5.2975609642990462e-01 3.3300259681354744e-01 8.4718622113954811e-01 -1.2353646004515044e+00 9.7217073907476814e-01 -2.3459088295909783e-01 3.0150799475049550e+00 -2.5414682837788838e-01 -8.1744808547607595e-01 5.5755019506142929e-02 3.1493219608813378e-01 -4.3706092830213752e+00 2.3705343189998112e+00 -1.2581079934169257e+00 -2.5375050525734153e+00 1.1141816735583894e-01 -4.2277090364966313e-01 -1.8783220305985060e+00 -5.3873954293611015e-01 1.5396693324814928e-01 1.0035726875346886e+00 3.1621781939637689e-01 5.1914094055011240e-01 -9.6658406969975894e-02 5.2388918941271800e-01 
        </Neuron>
        <Neuron NSynapses="25">
          8.0339664733204585e-02 -3.3483158682535183e+00 1.7858833506179321e+00 1.4925983442919890e+00 -1.4123990825331942e-01 4.3361042265032630e+00 -8.7410198628980518e-01 1.2341512188596249e-01 -3.3782400666103891e+00 -6.0828763187919788e-01 -8.5363876348532852e-01 -8.0794597868750939e-01 1.7382748758311584e+00 2.8656635477497927e+00 2.2395817834929446e+00 9.4764931164943911e-01 -3.3881132230698968e-01 -2.4100163190824460e+00 -3.5293060380699273e+00 9.2372272108530795e-01 -2.1729670676394516e-02 -4.9234393708685531e-01 1.3604083130408318e+00 -1.1077653275266373e+00 7.1743342175975588e-01 
        </Neuron>
        <Neuron NSynapses="25">
          -1.8295246658497473e+00 5.5067137146248317e+00 -1.9995331471460880e+00 -2.4864928705887031e+00 7.6738298862666365e-01 -7.9106463189401122e-01 9.1435134616695923e-01 -3.4637388931768225e+00 3.9769658039442786e+00 -1.4658349965025257e+00 -2.3402225449897580e+00 1.9631236936058702e-01 -1.9726301901255265e+00 6.4117729006369411e+00 2.9353309693186249e+00 5.1168679562887993e+00 -1.8305812055686093e+00 8.2861356618284698e-01 -4.0978597387415991e+00 1.0528697434866019e+00 8.3187100464060282e-01 -1.1378937070980808e+00 -2.4775722946673380e+00 4.0615428164813441e+00 -1.5711231681908593e+00 
        </Neuron>
        <Neuron NSynapses="25">
          -1.0770718445103332e+01 4.6387439025939048e-01 4.0807656765660383e-01 5.5116602393836778e-01 1.1058678745604282e+00 -7.9703821925532017e+00 1.3407535229567129e+00 -2.0210496744957775e+00 8.2004100693009896e-01 -6.6870437557065385e-02 8.5309735951685250e-01 -9.5528928848377814e-01 1.7277547403174958e+00 3.1695670215693514e+00 -1.0395829009085076e+00 1.5429942080469194e+00 -1.2084402066483420e+00 -1.7608041354822926e-01 -2.6731477215238195e+00 -4.3534250848413814e-01 -1.5215032030533133e+00 1.6330026578859029e+00 -2.2706472687803334e+00 1.3138635761636324e+00 -3.2084846146397963e+00 
        </Neuron>
        <Neuron NSynapses="25">
          1.3621587672080375e+00 1.5711061672029316e+00 -3.3428348214394359e+00 -1.4903944332200254e+00 -3.5522450168476358e+00 -6.9853102637636368e+00 -2.2897240962030070e+00 -2.2807010234867136e+00 2.0602880019831105e-01 -8.7176683092065743e-01 -2.0860177644377944e+00 3.8953278105803286e+00 -3.9059255624696909e-01 -1.5645795477717226e+00 -5.2762609015671269e-01 -2.4143484791742713e+00 1.1286449535779927e-01 -2.0454736714321609e-01 3.5624556381375272e-01 1.2753546627468715e-01 -5.7336341445800745e+00 1.5214644052902391e+00 -1.4584306491079553e+00 -5.0627627700424160e-01 -1.8036851892193198e+00 
        </Neuron>
        <Neuron NSynapses="25">
          -6.5963599515437856e+00 4.4466276352041145e+00 2.8702250937102386e-01 8.6875711114906662e-02 1.2552972739056398e+00 -4.1485783819520741e+00 -2.0598237194593230e+00 -9.4604487903415357e+00 2.9966548320441682e+00 3.9173808105128392e+00 -5.8985365484717101e-01 -1.9183613475743017e-01 5.8408527026751704e+00 -3.6818666757937382e+00 -1.3846355074275802e+00 5.8193220088682063e-01 2.6419120749648397e+00 -1.4448279052600926e-01 8.9160208304233957e-01 1.2647872632925143e+00 -1.3892873334516058e+00 -6.8626841207643023e+00 -1.4018408178692223e+00 -1.2641321180158185e+00 -8.0702756969153622e-01 
        </Neuron>
        <Neuron NSynapses="25">
          6.3788420615825574e+00 1.0705885492239819e+00 -1.8689147968541289e+00 3.0618080384859175e-01 3.5421086015307486e+00 -3.1234952573410402e-01 -9.2574151136584959e-02 1.3787444711785899e+00 1.0761690237292636e+00 -1.2856159326456387e+00 -2.8893154512416395e+00 9.8066227097780312e-01 3.4592712957588141e+00 9.7283466435108401e-01 3.7748850031256870e-01 2.8167843392529290e+00 3.9012253418123810e-01 3.5572722998596101e-01 1.0471937452172337e+00 -4.4179714247047768e+00 -1.7956600674781829e+00 2.1986864633210934e+00 -2.8594879257301176e+00 -1.9765913548341552e+00 -3.0121645166420064e+00 
        </Neuron>
        <Neuron NSynapses="25">
          -1.2518739745250007e-01 1.3548022084108504e+00 -3.8477350292868834e-01 -5.3761748331228150e+00 -4.6782388624624432e-01 4.5843493283759626e-02 -2.4550674433457162e+00 -1.5925194483880831e+00 4.3729317292848313e-01 -6.1592693376836360e-01 -1.6125979095031773e+00 3.2535779043422410e+00 -1.6102328311691936e+00 -2.6492214212637966e+00 -5.1925447795498991e-01 -3.4902981404973932e-01 -1.1133449832867433e+00 -1.9864433227483602e+00 1.9131656862093473e+00 3.5784954470672075e+00 1.4288873116426108e+00 -8.4597145194733370e-01 -1.8679086425093347e-01 -2.4430319278735495e+00 -3.0785765570139190e+00 
        </Neuron>
        <Neuron NSynapses="25">
          1.2311780955989509e+00 -4.4926668436172816e+00 -1.8903376476478098e+00 -1.4075909222629228e+00 2.7500072167012590e-01 2.8065981564891009e+00 7.5958508098967437e-01 -3.4717436721678143e+00 7.9718718075247341e-01 -2.2929379471601710e+00 -3.6193277639493724e+00 2.6360658869443993e-01 1.4895092053439061e+00 4.1605395670732745e+00 -2.4601626008941722e+00 -2.2022285827774786e+00 4.8162248557765928e+00 -3.0169766679699399e+00 -7.5312788660158636e-01 -2.5537615698846294e+00 -2.2044148261217962e+00 3.7056801039844998e+00 -1.4864824068320368e+00 1.5189265580171605e+00 -1.1493916285324663e+00 
        </Neuron>
        <Neuron NSynapses="25">
          2.3962268971025497e-01 5.9780604097307322e-01 1.1756843040492362e+00 2.3639582009113194e+00 -4.8333673938388726e+00 -2.2555208792120061e+00 1.5047822769414814e+00 -3.5824195067039127e-01 1.0724124278748568e+00 -2.4173242099594257e+00 5.4692567499713292e+00 -1.1470423038992999e+01 -4.3205770635850476e+00 -2.2498790407037621e+00 2.8204398079629938e+00 -2.1206024173069888e+00 -1.7447305077322299e+00 -2.6713330856200042e+00 -9.2308197532949954e-01 -1.0321275755554099e+01 2.9662142044898215e-01 -2.9549024181768653e+00 -3.3146283420472544e+00 1.2734226080631811e-01 1.0419077506287861e+01 
        </Neuron>
        <Neuron NSynapses="25">
          -1.2942109336141723e+01 -4.7805298677699226e-01 2.9266995425985503e+00 -4.5197724118983906e+00 1.3828117550743826e-01 -7.1799213100948105e+00 -5.8296740130012372e+00 -8.9977098672393083e+00 -3.0402724157413288e+00 2.9124945925675472e+00 1.4465108360248917e+00 4.8752620177579908e+00 6.7601644621761432e+00 -2.8247559126617899e-01 -3.1479990592583933e+00 3.4804984996772790e+00 2.2127821844607998e+00 1.9475932697249019e+00 -4.1537516570022399e+00 6.7248926953155064e-01 4.1039448483928442e+00 -2.4933268900570669e+00 2.0718981598527750e+00 -2.5711791601381115e+00 6.1107890044740032e-01 
        </Neuron>
        <Neuron NSynapses="25">
          1.0068316575029110e+00 -1.4526572681373123e-01 -2.3284806363698043e+00 -8.8841304786714870e-02 -6.3551406812242450e-01 5.3454878694202801e-01 -1.3726040244013875e+00 1.5917529605824090e+00 -5.0758599652264824e-01 -7.1758850994457815e+00 -8.5138535083319749e+00 3.1376499766632253e-02 -8.4710461201484701e+00 2.5981600652005952e+00 -1.4940371444045173e+00 2.8951209705925524e-01 1.8700808677886207e+00 5.0572831134883678e-01 -2.5660758707716611e+00 -1.4604169696248270e+00 -1.1353262633636410e+00 1.5645053013401586e-01 -7.5258951427519936e+00 2.5858340084310965e+00 -7.3350215512370394e+00 
        </Neuron>
      </Layer>
      <Layer Index="2" NNeurons="26">
        <Neuron NSynapses="1">
          -6.0603492604139610e+00 
        </Neuron>
        <Neuron NSynapses="1">
          -1.4627520498889082e+00 
        </Neuron>
        <Neuron NSynapses="1">
          -3.9470199339470593e+00 
        </Neuron>
        <Neuron NSynapses="1">
          -2.9183688158487291e+00 
        </Neuron>
        <Neuron NSynapses="1">
          1.1352024190373273e+00 
        </Neuron>
        <Neuron NSynapses="1">
          2.6050528259868000e+00 
        </Neuron>
        <Neuron NSynapses="1">
          1.2969747296834595e+00 
        </Neuron>
        <Neuron NSynapses="1">
          -4.3025651940434209e+00 
        </Neuron>
        <Neuron NSynapses="1">
          -2.2501834462723087e+00 
        </Neuron>
        <Neuron NSynapses="1">
          2.9384671607064301e+00 
        </Neuron>
        <Neuron NSynapses="1">
          2.7176751191819886e+00 
        </Neuron>
        <Neuron NSynapses="1">
          -2.0912422160215196e+00 
        </Neuron>
        <Neuron NSynapses="1">
          1.2941517684267585e+00 
        </Neuron>
        <Neuron NSynapses="1">
          -8.6642130994507416e-01 
        </Neuron>
        <Neuron NSynapses="1">
          -1.6737034553591994e+00 
        </Neuron>
        <Neuron NSynapses="1">
          -1.3534473706837851e+00 
        </Neuron>
        <Neuron NSynapses="1">
          -1.9687961727566161e+00 
        </Neuron>
        <Neuron NSynapses="1">
          2.6364279632373373e+00 
        </Neuron>
        <Neuron NSynapses="1">
          1.3051830513529583e+00 
        </Neuron>
        <Neuron NSynapses="1">
          2.1086276468403193e+00 
        </Neuron>
        <Neuron NSynapses="1">
          -5.3076476011997400e+00 
        </Neuron>
        <Neuron NSynapses="1">
          1.6880206270367115e+00 
        </Neuron>
        <Neuron NSynapses="1">
          3.2874136771817342e+00 
        </Neuron>
        <Neuron NSynapses="1">
          -2.1374462056556776e+00 
        </Neuron>
        <Neuron NSynapses="1">
          6.4265381592177420e+00 
        </Neuron>
        <Neuron NSynapses="1">
          -5.9978205065402068e-01 
        </Neuron>
      </Layer>
      <Layer Index="3" NNeurons="1">
        <Neuron NSynapses="0"/>
      </Layer>
    </Layout>
  </Weights>
</MethodSetup>
